/* Copyright 2019 The TensorFlow Authors. All Rights Reserved.

Licensed under the Apache License, Version 2.0 (the "License");
you may not use this file except in compliance with the License.
You may obtain a copy of the License at

    http://www.apache.org/licenses/LICENSE-2.0

Unless required by applicable law or agreed to in writing, software
distributed under the License is distributed on an "AS IS" BASIS,
WITHOUT WARRANTIES OR CONDITIONS OF ANY KIND, either express or implied.
See the License for the specific language governing permissions and
limitations under the License.
==============================================================================*/

// Automatically created from a TensorFlow Lite flatbuffer using the command:
// xxd -i magic_wand_model.tflite > magic_wand_model_data.cc
// See the README for a full description of the creation process.

#include "model_data.h"

// We need to keep the data array aligned on some architectures.
#ifdef __has_attribute
#define HAVE_ATTRIBUTE(x) __has_attribute(x)
#else
#define HAVE_ATTRIBUTE(x) 0
#endif
#if HAVE_ATTRIBUTE(aligned) || (defined(__GNUC__) && !defined(__clang__))
#define DATA_ALIGN_ATTRIBUTE __attribute__((aligned(4)))
#else
#define DATA_ALIGN_ATTRIBUTE
#endif

// LSTM
const unsigned char model_data[] DATA_ALIGN_ATTRIBUTE   ={
  0x1c, 0x00, 0x00, 0x00, 0x54, 0x46, 0x4c, 0x33, 0x14, 0x00, 0x20, 0x00,
  0x1c, 0x00, 0x18, 0x00, 0x14, 0x00, 0x10, 0x00, 0x0c, 0x00, 0x00, 0x00,
  0x08, 0x00, 0x04, 0x00, 0x14, 0x00, 0x00, 0x00, 0x1c, 0x00, 0x00, 0x00,
  0x90, 0x00, 0x00, 0x00, 0xe8, 0x00, 0x00, 0x00, 0x00, 0x0d, 0x00, 0x00,
  0x10, 0x0d, 0x00, 0x00, 0x08, 0x12, 0x00, 0x00, 0x03, 0x00, 0x00, 0x00,
  0x01, 0x00, 0x00, 0x00, 0x10, 0x00, 0x00, 0x00, 0x00, 0x00, 0x0a, 0x00,
  0x10, 0x00, 0x0c, 0x00, 0x08, 0x00, 0x04, 0x00, 0x0a, 0x00, 0x00, 0x00,
  0x0c, 0x00, 0x00, 0x00, 0x1c, 0x00, 0x00, 0x00, 0x38, 0x00, 0x00, 0x00,
  0x0f, 0x00, 0x00, 0x00, 0x73, 0x65, 0x72, 0x76, 0x69, 0x6e, 0x67, 0x5f,
  0x64, 0x65, 0x66, 0x61, 0x75, 0x6c, 0x74, 0x00, 0x01, 0x00, 0x00, 0x00,
  0x04, 0x00, 0x00, 0x00, 0x98, 0xff, 0xff, 0xff, 0x09, 0x00, 0x00, 0x00,
  0x04, 0x00, 0x00, 0x00, 0x07, 0x00, 0x00, 0x00, 0x64, 0x65, 0x6e, 0x73,
  0x65, 0x5f, 0x32, 0x00, 0x01, 0x00, 0x00, 0x00, 0x04, 0x00, 0x00, 0x00,
  0xca, 0xf3, 0xff, 0xff, 0x04, 0x00, 0x00, 0x00, 0x0b, 0x00, 0x00, 0x00,
  0x64, 0x65, 0x6e, 0x73, 0x65, 0x5f, 0x69, 0x6e, 0x70, 0x75, 0x74, 0x00,
  0x02, 0x00, 0x00, 0x00, 0x34, 0x00, 0x00, 0x00, 0x04, 0x00, 0x00, 0x00,
  0xdc, 0xff, 0xff, 0xff, 0x0c, 0x00, 0x00, 0x00, 0x04, 0x00, 0x00, 0x00,
  0x13, 0x00, 0x00, 0x00, 0x43, 0x4f, 0x4e, 0x56, 0x45, 0x52, 0x53, 0x49,
  0x4f, 0x4e, 0x5f, 0x4d, 0x45, 0x54, 0x41, 0x44, 0x41, 0x54, 0x41, 0x00,
  0x08, 0x00, 0x0c, 0x00, 0x08, 0x00, 0x04, 0x00, 0x08, 0x00, 0x00, 0x00,
  0x0b, 0x00, 0x00, 0x00, 0x04, 0x00, 0x00, 0x00, 0x13, 0x00, 0x00, 0x00,
  0x6d, 0x69, 0x6e, 0x5f, 0x72, 0x75, 0x6e, 0x74, 0x69, 0x6d, 0x65, 0x5f,
  0x76, 0x65, 0x72, 0x73, 0x69, 0x6f, 0x6e, 0x00, 0x0d, 0x00, 0x00, 0x00,
  0x14, 0x0c, 0x00, 0x00, 0x0c, 0x0c, 0x00, 0x00, 0xbc, 0x0b, 0x00, 0x00,
  0xa0, 0x0b, 0x00, 0x00, 0x10, 0x0b, 0x00, 0x00, 0x00, 0x09, 0x00, 0x00,
  0xf0, 0x00, 0x00, 0x00, 0xa0, 0x00, 0x00, 0x00, 0x98, 0x00, 0x00, 0x00,
  0x90, 0x00, 0x00, 0x00, 0x88, 0x00, 0x00, 0x00, 0x68, 0x00, 0x00, 0x00,
  0x04, 0x00, 0x00, 0x00, 0x76, 0xf4, 0xff, 0xff, 0x04, 0x00, 0x00, 0x00,
  0x54, 0x00, 0x00, 0x00, 0x0c, 0x00, 0x00, 0x00, 0x08, 0x00, 0x0e, 0x00,
  0x08, 0x00, 0x04, 0x00, 0x08, 0x00, 0x00, 0x00, 0x10, 0x00, 0x00, 0x00,
  0x24, 0x00, 0x00, 0x00, 0x00, 0x00, 0x06, 0x00, 0x08, 0x00, 0x04, 0x00,
  0x06, 0x00, 0x00, 0x00, 0x04, 0x00, 0x00, 0x00, 0x00, 0x00, 0x00, 0x00,
  0x00, 0x00, 0x0a, 0x00, 0x10, 0x00, 0x0c, 0x00, 0x08, 0x00, 0x04, 0x00,
  0x0a, 0x00, 0x00, 0x00, 0x02, 0x00, 0x00, 0x00, 0x02, 0x00, 0x00, 0x00,
  0x04, 0x00, 0x00, 0x00, 0x06, 0x00, 0x00, 0x00, 0x32, 0x2e, 0x31, 0x32,
  0x2e, 0x30, 0x00, 0x00, 0xd6, 0xf4, 0xff, 0xff, 0x04, 0x00, 0x00, 0x00,
  0x10, 0x00, 0x00, 0x00, 0x31, 0x2e, 0x35, 0x2e, 0x30, 0x00, 0x00, 0x00,
  0x00, 0x00, 0x00, 0x00, 0x00, 0x00, 0x00, 0x00, 0xc0, 0xef, 0xff, 0xff,
  0xc4, 0xef, 0xff, 0xff, 0xc8, 0xef, 0xff, 0xff, 0xfe, 0xf4, 0xff, 0xff,
  0x04, 0x00, 0x00, 0x00, 0x40, 0x00, 0x00, 0x00, 0x0f, 0xf4, 0xb7, 0x3d,
  0x87, 0x2b, 0x9f, 0x3d, 0xd8, 0xe2, 0x44, 0xbe, 0xd2, 0x7d, 0xb4, 0xbc,
  0x55, 0x44, 0x80, 0xbe, 0x8a, 0xdb, 0xd9, 0xbd, 0x76, 0xbd, 0x37, 0x3e,
  0x5d, 0xa6, 0xde, 0x3b, 0x2d, 0xc6, 0x73, 0xbe, 0x39, 0xeb, 0xb8, 0xbe,
  0x3a, 0x6f, 0x0f, 0x3d, 0x72, 0x45, 0x54, 0x3d, 0x32, 0x0b, 0x17, 0xbe,
  0xfb, 0xe1, 0xb9, 0x3e, 0x7d, 0x18, 0x5b, 0x3e, 0x07, 0x0c, 0xe8, 0xbe,
  0x4a, 0xf5, 0xff, 0xff, 0x04, 0x00, 0x00, 0x00, 0x00, 0x08, 0x00, 0x00,
  0xc7, 0x64, 0x91, 0xbf, 0x6f, 0xc2, 0xa8, 0xbe, 0xd0, 0x0a, 0x10, 0x3f,
  0xdb, 0x25, 0x23, 0x3f, 0xfc, 0x33, 0xe5, 0x3d, 0x8f, 0x3b, 0x5d, 0x3f,
  0x31, 0xf8, 0x96, 0xbe, 0xc6, 0xaa, 0xbf, 0xbe, 0x06, 0x5f, 0x01, 0x3e,
  0x2b, 0x1b, 0x0a, 0x3f, 0x34, 0x75, 0xd8, 0xbb, 0xfe, 0x08, 0x27, 0x3e,
  0x7f, 0xa0, 0x0e, 0xbe, 0x6e, 0x9f, 0xa2, 0xbe, 0x65, 0x0d, 0x3a, 0xbf,
  0x82, 0x91, 0x91, 0xbf, 0x72, 0xd1, 0xb7, 0xbe, 0x1b, 0xdc, 0x4d, 0x3e,
  0x41, 0xee, 0x3a, 0xbe, 0xd3, 0x17, 0xe0, 0x3e, 0xf6, 0x7f, 0xa5, 0xbe,
  0x82, 0xfb, 0x9e, 0x3e, 0xf8, 0xc7, 0x71, 0xbd, 0xad, 0x87, 0xa0, 0x3e,
  0xd1, 0xde, 0x49, 0x3e, 0x09, 0xad, 0x36, 0xbf, 0x1b, 0x03, 0x0e, 0xbf,
  0xa6, 0x08, 0xf4, 0xbd, 0x08, 0x11, 0x8e, 0x3e, 0x91, 0x03, 0x22, 0x3f,
  0xf2, 0xb0, 0xe9, 0x3d, 0x0b, 0xd6, 0xff, 0xbd, 0x26, 0x77, 0x9c, 0xbd,
  0xad, 0x24, 0x0f, 0x3e, 0xbe, 0xf6, 0x61, 0x3f, 0xae, 0xb4, 0x12, 0x3f,
  0xc3, 0xb9, 0x50, 0xbe, 0x9f, 0x3b, 0x92, 0x3f, 0xa2, 0xf4, 0x60, 0x3e,
  0xe7, 0x3c, 0x98, 0xbe, 0xf6, 0x70, 0x4e, 0xbe, 0x2c, 0xaf, 0xe4, 0x3f,
  0xde, 0x30, 0x72, 0x3e, 0xf6, 0xe3, 0xc9, 0xbe, 0xe0, 0x8c, 0x9c, 0xbc,
  0xb5, 0xd0, 0x5b, 0xbd, 0x8d, 0x4f, 0x35, 0xbe, 0xab, 0xc7, 0x62, 0xbe,
  0xd4, 0xe6, 0xb7, 0xbe, 0x21, 0x25, 0x15, 0x3f, 0xa1, 0x18, 0xa2, 0xbe,
  0x6c, 0x47, 0x1a, 0xbd, 0xe1, 0x02, 0x7e, 0x3e, 0x36, 0xd6, 0x0b, 0xbe,
  0x9c, 0x4d, 0x38, 0xbe, 0x45, 0xd7, 0x46, 0xbe, 0xdf, 0x02, 0x73, 0x3e,
  0x21, 0x95, 0x90, 0xbe, 0x61, 0xd6, 0xc4, 0x3e, 0x79, 0xb1, 0xb2, 0x3b,
  0xdb, 0x7f, 0x11, 0x3f, 0x2a, 0x62, 0xdf, 0x3e, 0x3d, 0x3f, 0xc2, 0xbd,
  0x74, 0x11, 0x6b, 0x3d, 0x9c, 0x47, 0x95, 0xbe, 0xe9, 0xec, 0xb3, 0x3e,
  0x28, 0xbe, 0x80, 0x3d, 0x10, 0xfe, 0xe4, 0x3d, 0x1c, 0x6c, 0x44, 0xbe,
  0x47, 0xbc, 0xa6, 0xbe, 0xf0, 0xaa, 0x22, 0xbd, 0x44, 0x16, 0x54, 0xbe,
  0xd7, 0x07, 0x8e, 0x3e, 0xb0, 0x4a, 0x15, 0xbd, 0xca, 0x25, 0xae, 0xbe,
  0xb5, 0x22, 0xa3, 0x3e, 0x00, 0x6e, 0xe2, 0x3d, 0xe6, 0xd1, 0x20, 0xbe,
  0x40, 0x1b, 0xd4, 0xbc, 0x2b, 0xe2, 0x88, 0xbe, 0xb3, 0x05, 0x9c, 0xbe,
  0x3e, 0xcd, 0xef, 0xbd, 0x48, 0xba, 0xb0, 0xbd, 0x19, 0x80, 0x8a, 0x3e,
  0x46, 0xd7, 0x97, 0xbe, 0x14, 0x17, 0xa6, 0xbd, 0x75, 0x78, 0x8c, 0xbe,
  0xb9, 0x73, 0x9e, 0x3e, 0xd3, 0xc6, 0xb1, 0x3e, 0x93, 0x0f, 0x94, 0x3e,
  0x35, 0x0e, 0x46, 0xbe, 0x20, 0xe1, 0x50, 0xbc, 0xf2, 0x58, 0xb0, 0xbe,
  0x4e, 0x0a, 0x30, 0x3e, 0x3e, 0x8b, 0xe1, 0xbd, 0x62, 0x3a, 0x06, 0xbe,
  0x06, 0xbb, 0x5d, 0x3e, 0xa7, 0x59, 0x84, 0xbe, 0xf6, 0xa2, 0x65, 0x3e,
  0x5f, 0x13, 0x84, 0x3e, 0x0a, 0x84, 0x77, 0xbe, 0xa8, 0x4c, 0xb1, 0xbd,
  0xe9, 0x59, 0x8c, 0x3e, 0xe3, 0xa2, 0x5f, 0x3e, 0xdc, 0xf4, 0x07, 0x3e,
  0xe5, 0x24, 0xaa, 0xbe, 0xeb, 0x9a, 0x98, 0x3e, 0xc2, 0xff, 0x43, 0xbe,
  0x04, 0xaa, 0x83, 0xbd, 0xc5, 0xf1, 0x69, 0xbe, 0x7c, 0x00, 0x88, 0x3e,
  0xb1, 0x62, 0x74, 0xbe, 0x37, 0xae, 0x57, 0x3e, 0xa8, 0xba, 0x1f, 0x3d,
  0x51, 0x21, 0x30, 0xbe, 0x4e, 0x2c, 0xdb, 0xbd, 0x8e, 0x9d, 0x14, 0xbe,
  0x39, 0x66, 0x72, 0x3e, 0xa0, 0xb7, 0xf1, 0x3d, 0x62, 0xd8, 0xaf, 0xbe,
  0xa2, 0xc9, 0xe1, 0xbd, 0xf8, 0x00, 0x86, 0xbe, 0x2b, 0xc7, 0x06, 0xbd,
  0x59, 0x62, 0x27, 0xbc, 0xd8, 0x35, 0xbe, 0xbd, 0xd6, 0xab, 0x73, 0x3e,
  0xd7, 0xeb, 0xbb, 0xbe, 0x9a, 0xd1, 0x50, 0x3e, 0x0c, 0x1f, 0x4f, 0xbe,
  0x60, 0x34, 0xd9, 0xbe, 0x6d, 0xbb, 0x83, 0xbe, 0x35, 0x69, 0x70, 0xbe,
  0xe8, 0xd0, 0x93, 0xbe, 0xa0, 0x08, 0x8f, 0xbd, 0x01, 0x06, 0xa8, 0xbe,
  0xba, 0xf1, 0xca, 0xbd, 0x34, 0x0d, 0x11, 0xbe, 0xb9, 0x28, 0x3d, 0xbe,
  0x0c, 0xf2, 0xad, 0x3d, 0xb4, 0xee, 0xff, 0xbd, 0xa2, 0xef, 0x43, 0x3e,
  0x5e, 0x54, 0x49, 0xbd, 0x0a, 0x79, 0x7f, 0xbe, 0xbd, 0x65, 0xb2, 0xbd,
  0x12, 0x4f, 0x01, 0x3d, 0xe8, 0x8a, 0xc6, 0xbd, 0x4a, 0x15, 0x3e, 0x3e,
  0xae, 0x09, 0x86, 0x3e, 0xcf, 0xb8, 0xad, 0xbe, 0x60, 0xa9, 0xe8, 0x3d,
  0xc0, 0x34, 0x4f, 0x3d, 0x5a, 0xb9, 0x23, 0x3e, 0x16, 0xb0, 0xd3, 0xbe,
  0x2c, 0x17, 0x5e, 0x3e, 0x5f, 0x1a, 0xa5, 0x3e, 0x19, 0x24, 0xb1, 0xbe,
  0x11, 0x22, 0x6a, 0x3e, 0xc5, 0x96, 0x81, 0x3e, 0x26, 0x2e, 0x08, 0x3e,
  0x6f, 0x03, 0xc6, 0x3d, 0x79, 0xab, 0x4b, 0xbe, 0xb9, 0xa1, 0xb4, 0xbe,
  0xb0, 0x3f, 0x87, 0xbc, 0x58, 0xea, 0x9b, 0xbe, 0x20, 0xf1, 0x75, 0xbd,
  0x65, 0xef, 0x8c, 0xbe, 0xe8, 0xd2, 0x4f, 0x3e, 0x36, 0xda, 0x98, 0x3e,
  0xa3, 0x1b, 0xa1, 0x3e, 0x62, 0xab, 0x91, 0x3e, 0x37, 0xa0, 0xac, 0xbe,
  0xc8, 0x52, 0x7a, 0x3d, 0x2b, 0x20, 0xb0, 0x3e, 0x41, 0x83, 0xc5, 0xbe,
  0x9d, 0x5e, 0xe7, 0x3d, 0x47, 0xbd, 0xa5, 0x3d, 0xd2, 0x51, 0x18, 0x3e,
  0x12, 0x88, 0x2d, 0xbe, 0x60, 0x16, 0x9c, 0xbd, 0xac, 0xd6, 0x98, 0xbe,
  0x62, 0xf8, 0xa3, 0xbd, 0x69, 0x1d, 0xa4, 0x3e, 0xeb, 0x20, 0x9f, 0xbe,
  0xa7, 0x55, 0x80, 0x3e, 0x8a, 0x2e, 0x22, 0xbe, 0xb4, 0x86, 0x39, 0xbe,
  0x0a, 0x58, 0xe2, 0xbd, 0x03, 0x1e, 0xac, 0x3e, 0x4a, 0x86, 0x92, 0xbe,
  0xd4, 0x5e, 0x98, 0xbe, 0x55, 0x51, 0xbd, 0xbe, 0x88, 0x6b, 0xc3, 0xbd,
  0x5c, 0x0d, 0xc6, 0xbe, 0x6e, 0x43, 0x33, 0xbe, 0xe2, 0xa5, 0xa1, 0x3f,
  0x3f, 0x7c, 0x47, 0x3f, 0x69, 0x73, 0x91, 0x3e, 0xcb, 0x81, 0x3a, 0x3f,
  0x61, 0x39, 0x2d, 0x3e, 0x9a, 0xcd, 0x2e, 0x3c, 0xb0, 0xe8, 0x34, 0xbe,
  0x13, 0xf0, 0xba, 0x3f, 0x97, 0x22, 0x81, 0xbe, 0xf1, 0x8a, 0x28, 0x3e,
  0x8a, 0xd2, 0x3f, 0x3e, 0x9c, 0x7f, 0xfb, 0x3d, 0xe7, 0x81, 0x43, 0x3e,
  0xa5, 0x67, 0xa1, 0xbd, 0xc6, 0x1c, 0x4b, 0xbe, 0x37, 0xb0, 0x7a, 0x3f,
  0xa1, 0xca, 0x3f, 0x3e, 0x5a, 0x2e, 0x3e, 0x3f, 0xea, 0x0f, 0x17, 0x3e,
  0xc1, 0x07, 0x4d, 0xbd, 0x9c, 0x25, 0x78, 0xbe, 0x98, 0xe2, 0x87, 0xbe,
  0x4c, 0x23, 0xb3, 0x3d, 0xd4, 0x2d, 0x41, 0xbe, 0xc6, 0xb8, 0x42, 0xbe,
  0xae, 0xf2, 0x82, 0x3e, 0x90, 0x1f, 0x8d, 0x3e, 0xdf, 0x23, 0x3c, 0x3e,
  0x3c, 0xd6, 0x48, 0x3e, 0x1d, 0x44, 0x12, 0x3e, 0x00, 0xf1, 0xba, 0xbd,
  0xb3, 0xb0, 0xb1, 0xbd, 0x99, 0x53, 0x2b, 0x3e, 0xed, 0x4b, 0x14, 0x3f,
  0x68, 0x98, 0xfb, 0x3d, 0x1a, 0xcf, 0x38, 0x3f, 0x70, 0x16, 0x57, 0x3e,
  0x12, 0x2d, 0xe9, 0xbe, 0x10, 0x43, 0x0c, 0xbd, 0x54, 0xbd, 0xaa, 0xbf,
  0x61, 0xe0, 0x94, 0xbe, 0x4c, 0x19, 0xa5, 0xbe, 0x1b, 0x31, 0x81, 0x3e,
  0x92, 0xaf, 0x31, 0xbe, 0x55, 0xcb, 0x24, 0x3e, 0x0b, 0x4b, 0xd1, 0xbe,
  0xa6, 0x4d, 0x63, 0x3e, 0xa8, 0x19, 0x18, 0xbe, 0x1e, 0x9e, 0x10, 0x3e,
  0xc9, 0x88, 0xdc, 0x3e, 0x2a, 0x1b, 0x55, 0x3e, 0x5c, 0x38, 0x50, 0xbe,
  0xd0, 0x97, 0x93, 0xbd, 0x38, 0x81, 0x03, 0x3e, 0x07, 0x08, 0x1c, 0xbe,
  0xe0, 0xe0, 0x66, 0x3c, 0xf8, 0x82, 0x2e, 0x3d, 0x63, 0xe0, 0xa5, 0xbe,
  0x85, 0xc9, 0x25, 0x3f, 0xdb, 0xc5, 0x63, 0xbd, 0xd2, 0x4a, 0xc4, 0x3d,
  0x46, 0x48, 0x7d, 0x3e, 0xfd, 0xb8, 0xcd, 0xbf, 0x24, 0xe0, 0x22, 0x3f,
  0x9c, 0x56, 0x76, 0xbf, 0x9e, 0x0c, 0xcd, 0xbe, 0x41, 0x9a, 0x21, 0xbe,
  0xc7, 0x9b, 0x29, 0xbf, 0x1f, 0x73, 0x09, 0xbe, 0x3d, 0x93, 0x63, 0xbe,
  0x24, 0x9e, 0xe0, 0x3d, 0xd6, 0xf3, 0x41, 0x40, 0xf8, 0x26, 0x37, 0x3d,
  0xd0, 0xf7, 0x3c, 0xbe, 0x9c, 0x19, 0x03, 0x3e, 0x15, 0x5c, 0x97, 0xbb,
  0x03, 0x1e, 0x27, 0xbe, 0xbf, 0xf9, 0x1b, 0x3f, 0x72, 0x1c, 0x84, 0x3e,
  0xb9, 0x60, 0xda, 0xbe, 0x6d, 0xd6, 0x57, 0x3e, 0x49, 0xf1, 0xca, 0xbd,
  0xbc, 0x4c, 0x01, 0xbd, 0x6e, 0x81, 0x87, 0xbd, 0x08, 0x7d, 0x50, 0xbd,
  0x12, 0x5b, 0x78, 0x3e, 0x43, 0x0a, 0x10, 0x3f, 0xe4, 0xdf, 0x29, 0xbe,
  0x1c, 0x62, 0x28, 0xbe, 0x21, 0x5b, 0xb0, 0x3d, 0x52, 0x65, 0x58, 0x3f,
  0x00, 0x67, 0x24, 0xbe, 0xeb, 0xad, 0xcb, 0x3d, 0xe4, 0x7c, 0x8b, 0xbe,
  0x62, 0xfb, 0x66, 0xbe, 0x20, 0xd2, 0x09, 0xbc, 0x14, 0xec, 0x90, 0x3d,
  0x25, 0x30, 0x90, 0xbe, 0xb0, 0x19, 0xf4, 0xbc, 0xe8, 0x36, 0x65, 0xbd,
  0x87, 0x09, 0x49, 0xbe, 0x76, 0xdd, 0x90, 0xbe, 0x30, 0xf8, 0x49, 0xbd,
  0xc0, 0x82, 0x94, 0x3d, 0x20, 0x5e, 0x73, 0x3d, 0xbe, 0xac, 0x73, 0x3e,
  0x1e, 0x12, 0x8b, 0xbe, 0xf4, 0x2a, 0xa7, 0xbe, 0x24, 0x94, 0xda, 0x3d,
  0x70, 0x8f, 0xd3, 0xbc, 0x30, 0xf4, 0xd8, 0xbd, 0xa0, 0xd1, 0xc3, 0x3c,
  0x00, 0x39, 0x13, 0x3b, 0xb4, 0x27, 0xa4, 0xbd, 0x20, 0x38, 0x78, 0x3c,
  0x44, 0xd8, 0x8f, 0x3d, 0x4c, 0x3b, 0x05, 0xbe, 0x6e, 0x05, 0xf1, 0xbd,
  0x58, 0x4e, 0xd4, 0x3d, 0x85, 0xee, 0x9b, 0x3e, 0x57, 0x4f, 0x33, 0xbe,
  0xbd, 0x2d, 0x9c, 0xbe, 0x00, 0xf0, 0xe8, 0xba, 0xcb, 0x5b, 0x63, 0xbe,
  0xb3, 0x3e, 0x61, 0xbe, 0xb8, 0x2d, 0x5b, 0x3d, 0xd8, 0xcd, 0xb1, 0xbe,
  0x84, 0x0d, 0x9f, 0x3e, 0x56, 0xc7, 0xb3, 0x3f, 0xfe, 0x42, 0xc9, 0x3f,
  0x3c, 0x49, 0x45, 0xbe, 0x55, 0x36, 0x5a, 0x3f, 0x4d, 0x42, 0x7f, 0xbe,
  0xaf, 0x29, 0x52, 0xbe, 0xe0, 0x2e, 0x24, 0x3d, 0x61, 0xe5, 0x31, 0x3e,
  0x65, 0x2b, 0xd0, 0x3d, 0x3b, 0xcd, 0xde, 0xbe, 0xbb, 0x15, 0x81, 0x3e,
  0xad, 0xbb, 0x15, 0xbe, 0x2e, 0x6b, 0xea, 0x3c, 0xbb, 0x0d, 0x84, 0xbf,
  0x49, 0xe7, 0xd1, 0x3d, 0xc9, 0xd6, 0x49, 0x3f, 0xee, 0xa0, 0x85, 0x3c,
  0x8f, 0xc4, 0x48, 0x3f, 0x3d, 0x01, 0xfa, 0xbd, 0xf0, 0x28, 0x98, 0xbe,
  0x78, 0xe6, 0x8b, 0xbd, 0xe0, 0x74, 0xda, 0x3c, 0xf4, 0xb1, 0xb6, 0x3e,
  0x04, 0x27, 0xe5, 0x3e, 0x64, 0xaa, 0x89, 0xbd, 0xdd, 0xe4, 0x86, 0xbe,
  0x68, 0x4f, 0x24, 0xbe, 0x0d, 0xf9, 0xca, 0x3e, 0xbe, 0x4f, 0x9f, 0xbc,
  0x98, 0xec, 0x7b, 0xbe, 0x8f, 0x10, 0x13, 0x3d, 0x0a, 0x58, 0x82, 0xbe,
  0x43, 0x3c, 0xaa, 0xbe, 0xb2, 0x05, 0xc3, 0xbe, 0xa7, 0x6a, 0x97, 0xbe,
  0x92, 0x63, 0x94, 0xbe, 0x6d, 0x48, 0x8c, 0x3e, 0x66, 0x9b, 0xf9, 0xbd,
  0x36, 0xf8, 0x3b, 0x3e, 0xa5, 0x6c, 0x8e, 0xbf, 0x73, 0x49, 0xcf, 0x3b,
  0x2c, 0xc7, 0x7b, 0x3e, 0x28, 0x02, 0x0c, 0x3e, 0x02, 0x8e, 0xa7, 0x3e,
  0x95, 0xd0, 0x83, 0x3e, 0x0c, 0xa1, 0x9b, 0x3e, 0x42, 0x66, 0xa9, 0xbe,
  0x59, 0xf5, 0x4a, 0x3e, 0x75, 0x38, 0xef, 0x3d, 0xae, 0x9b, 0x21, 0x3f,
  0xcd, 0xed, 0x27, 0xbe, 0x07, 0x90, 0x0f, 0x3e, 0x00, 0x0a, 0xf0, 0xba,
  0x34, 0xdf, 0x28, 0xbe, 0xdd, 0x56, 0xa9, 0xbe, 0x74, 0x4e, 0x4a, 0xbe,
  0x39, 0x25, 0x7b, 0x3e, 0x64, 0xd1, 0x9b, 0xbe, 0xd8, 0xc8, 0x5d, 0xbf,
  0xe5, 0x24, 0xa1, 0xbe, 0x3a, 0x2d, 0xac, 0x3d, 0x00, 0x32, 0xe5, 0x3c,
  0x8c, 0xa0, 0xb0, 0xbc, 0x39, 0x59, 0x5f, 0xbf, 0xe4, 0xea, 0x47, 0x3e,
  0xf2, 0xa6, 0xfd, 0x3f, 0x14, 0xfc, 0xd4, 0xbd, 0xb1, 0xcb, 0x8c, 0x3e,
  0x20, 0x9c, 0x5e, 0x3e, 0xf5, 0xc8, 0x94, 0x3e, 0x48, 0x3b, 0x14, 0x3e,
  0x1d, 0x6b, 0xa5, 0xbf, 0x1a, 0x84, 0x18, 0x3e, 0x94, 0xb2, 0x46, 0x3e,
  0xc8, 0xa3, 0x12, 0x3d, 0x42, 0x3c, 0xee, 0x3d, 0x0a, 0xa2, 0x68, 0x3e,
  0xdc, 0x21, 0xdf, 0xbd, 0xd8, 0x7a, 0xfc, 0x3d, 0xa0, 0xf4, 0x42, 0x3d,
  0xc6, 0x19, 0x2c, 0x3e, 0x7f, 0x33, 0x78, 0x3f, 0xce, 0xd8, 0x91, 0xbd,
  0xef, 0x8a, 0x94, 0xbe, 0x25, 0x3d, 0x80, 0x3e, 0xbe, 0x85, 0x7a, 0xbe,
  0xdc, 0xa6, 0x8d, 0xbe, 0xef, 0x61, 0x87, 0xba, 0x6b, 0x0b, 0x99, 0xbd,
  0xdf, 0x08, 0xa3, 0x3d, 0x8a, 0xea, 0xad, 0x3f, 0xd5, 0x6c, 0x58, 0x3e,
  0x58, 0x14, 0x59, 0xbe, 0x82, 0x40, 0xab, 0xbe, 0x94, 0x9b, 0x8c, 0x3d,
  0xf1, 0x09, 0x8a, 0xbd, 0xf9, 0xc4, 0x98, 0x3f, 0x73, 0xcd, 0x59, 0x3e,
  0x08, 0x7a, 0x9b, 0xbd, 0x80, 0x9f, 0x4d, 0x3f, 0x70, 0xcd, 0xac, 0x3e,
  0x83, 0x1b, 0x8e, 0x3e, 0xce, 0x81, 0x3d, 0x3e, 0xdc, 0x4a, 0x13, 0x40,
  0x6e, 0x01, 0xc5, 0xbe, 0x98, 0x88, 0x40, 0x3e, 0x92, 0x0f, 0x1e, 0x3e,
  0x92, 0x59, 0x08, 0xbe, 0x53, 0x06, 0xc5, 0xbd, 0x4a, 0x28, 0x85, 0x3e,
  0x43, 0xdc, 0x8b, 0x3d, 0x21, 0x77, 0xe4, 0x3e, 0x08, 0xc5, 0x9b, 0x3e,
  0x3a, 0x0e, 0x87, 0xbd, 0x69, 0xc3, 0x7d, 0xbe, 0x49, 0xb0, 0x6c, 0xbe,
  0xe4, 0xba, 0xca, 0xbd, 0xbf, 0x41, 0x8a, 0x3e, 0x88, 0x3b, 0x2c, 0xbe,
  0x5a, 0x35, 0x22, 0xbe, 0xd1, 0x18, 0xb3, 0xbd, 0x4b, 0x9e, 0x38, 0x3c,
  0xcc, 0x85, 0x2a, 0x3f, 0xe7, 0xaa, 0xdb, 0x3e, 0xc7, 0x3c, 0x68, 0x3e,
  0x88, 0x8e, 0x09, 0xbe, 0xaa, 0xca, 0x25, 0xbe, 0xb9, 0x58, 0xae, 0xbe,
  0xa3, 0x23, 0x6b, 0x3f, 0x5f, 0xd8, 0x8f, 0x3f, 0xa8, 0x61, 0xe1, 0xbd,
  0xde, 0x2a, 0x17, 0x3e, 0x4f, 0xfd, 0xf1, 0xbd, 0xfd, 0x94, 0x2e, 0xbf,
  0x80, 0x04, 0xa8, 0xbe, 0x8a, 0x45, 0xbb, 0x3e, 0x8a, 0xfc, 0x6d, 0xbf,
  0x42, 0x52, 0xf6, 0x3c, 0xdf, 0xa7, 0x8f, 0x3e, 0x6c, 0xd4, 0xb2, 0x3b,
  0xc7, 0x65, 0x10, 0xbf, 0x2e, 0x13, 0x8f, 0xbf, 0x3a, 0x68, 0x40, 0x3e,
  0xcb, 0xa4, 0x46, 0x3f, 0x19, 0x13, 0x9e, 0xbe, 0xa9, 0x7f, 0xc5, 0xbc,
  0x31, 0x88, 0xbf, 0xbe, 0x7b, 0x41, 0x06, 0x3e, 0x12, 0x36, 0x4d, 0x3e,
  0xb8, 0x92, 0xf1, 0xbd, 0x46, 0x77, 0xf6, 0xbd, 0x1d, 0xe3, 0x84, 0xbe,
  0x6e, 0xdc, 0x6b, 0xbe, 0x7b, 0xd6, 0xb2, 0xbe, 0x32, 0xc0, 0xe6, 0x3e,
  0xef, 0xce, 0xac, 0x3d, 0xe4, 0xa9, 0xd7, 0xbe, 0x66, 0xcd, 0x0d, 0xbe,
  0xd6, 0x9d, 0x14, 0xbe, 0xd2, 0x27, 0x33, 0x3e, 0xe4, 0x79, 0xd7, 0x3d,
  0xf5, 0x16, 0xdb, 0x3d, 0x4e, 0x5a, 0xa5, 0xbe, 0x04, 0x83, 0xfd, 0x3d,
  0x0d, 0xde, 0x81, 0x3e, 0x4b, 0x3a, 0xd8, 0x3d, 0x88, 0x35, 0xf7, 0x3d,
  0x79, 0xe0, 0xac, 0xbe, 0xb4, 0xd1, 0x45, 0xbe, 0xdb, 0x4a, 0x4c, 0xbe,
  0xb8, 0x28, 0xb1, 0x3d, 0xbb, 0x8d, 0x1c, 0xbe, 0x74, 0xa1, 0x36, 0xbe,
  0x41, 0xd9, 0x95, 0xbe, 0x6f, 0x42, 0x49, 0xbe, 0xaf, 0xde, 0x22, 0xbe,
  0xf4, 0x29, 0xea, 0x3d, 0x0c, 0x8f, 0x93, 0xbe, 0xa4, 0x32, 0x04, 0x3e,
  0x70, 0x9b, 0xe2, 0x3d, 0xed, 0x54, 0x9f, 0x3e, 0x00, 0x68, 0x0c, 0x3c,
  0x83, 0x75, 0x97, 0x3e, 0xd5, 0x50, 0x86, 0xbe, 0x1a, 0xe1, 0x58, 0x3e,
  0x97, 0x75, 0xfb, 0x3d, 0xd0, 0xe8, 0xa2, 0xbe, 0x3a, 0xb5, 0x16, 0xbe,
  0x8b, 0xed, 0x91, 0xbd, 0xe7, 0xd6, 0x66, 0xbe, 0x56, 0xfd, 0xff, 0xff,
  0x04, 0x00, 0x00, 0x00, 0x00, 0x02, 0x00, 0x00, 0x25, 0xcb, 0xad, 0xc0,
  0xac, 0x14, 0x49, 0x3f, 0xb1, 0xdf, 0x0b, 0x3c, 0xea, 0x9d, 0x6a, 0x40,
  0x8b, 0x28, 0xba, 0x3f, 0x0c, 0x17, 0x43, 0xbf, 0x60, 0xf1, 0xc6, 0xbc,
  0x33, 0x48, 0x0b, 0x41, 0xed, 0x84, 0xea, 0x3e, 0xb3, 0x28, 0xac, 0xbf,
  0xbf, 0x20, 0x74, 0xbe, 0x90, 0x63, 0x3f, 0xc0, 0xb8, 0xa3, 0x33, 0x40,
  0xdc, 0xb7, 0x8e, 0x40, 0xa5, 0x49, 0xb2, 0xbb, 0x73, 0xff, 0x95, 0xc0,
  0x74, 0xf6, 0xc5, 0xbe, 0x40, 0xb4, 0x13, 0xbd, 0x3d, 0x64, 0xc9, 0xbe,
  0x19, 0xa1, 0x4b, 0xbe, 0xc6, 0xdd, 0x1f, 0x3e, 0x20, 0x56, 0x09, 0xc0,
  0x25, 0xad, 0x98, 0xbd, 0x4c, 0xbf, 0xaa, 0xbf, 0x2b, 0x72, 0x7c, 0xbf,
  0xe9, 0xba, 0xad, 0x3f, 0x6c, 0x3c, 0xb9, 0x39, 0x05, 0x85, 0x37, 0xc0,
  0xf9, 0xda, 0x9b, 0xc0, 0x6d, 0xe3, 0x50, 0xc0, 0xaf, 0x4c, 0x6f, 0x3e,
  0xfa, 0x8e, 0xc3, 0x40, 0xe4, 0x3c, 0xb9, 0xbd, 0x64, 0x03, 0xbd, 0x3e,
  0x60, 0x69, 0xec, 0xbd, 0xf4, 0x1f, 0x82, 0xbe, 0xe4, 0xe5, 0xa5, 0x40,
  0x85, 0xa7, 0xc7, 0xbe, 0xd7, 0xf6, 0x18, 0xbb, 0x86, 0x2c, 0x17, 0x41,
  0xec, 0x0f, 0x5c, 0xc0, 0x09, 0xe3, 0xd8, 0x3e, 0xee, 0x73, 0x68, 0x3e,
  0x80, 0x2c, 0xf6, 0xc0, 0x84, 0x96, 0x1b, 0xc0, 0x26, 0xc3, 0x2e, 0xc0,
  0xd9, 0x82, 0xc4, 0xbd, 0x30, 0x1e, 0xb0, 0x3d, 0xa4, 0x37, 0x0c, 0xbe,
  0x2c, 0x64, 0xb7, 0x3e, 0x24, 0x94, 0x92, 0xbe, 0xcc, 0x84, 0xdd, 0xbd,
  0x5f, 0xd7, 0x2b, 0xc0, 0x29, 0xbe, 0x8b, 0x3d, 0xd1, 0x81, 0x7b, 0x3a,
  0x72, 0x72, 0xa7, 0xc0, 0xe8, 0x92, 0x1a, 0xc0, 0xe9, 0x8e, 0x06, 0x40,
  0xb7, 0x86, 0x1f, 0x3c, 0x44, 0x93, 0x18, 0xc1, 0x60, 0x84, 0x73, 0x3f,
  0x11, 0xce, 0xdf, 0xc0, 0x5d, 0x6c, 0xdc, 0x3a, 0x1c, 0xb0, 0x16, 0x41,
  0x09, 0xc7, 0xd3, 0x3f, 0x98, 0xed, 0x5d, 0xc0, 0x6a, 0xcb, 0x6c, 0xbc,
  0xa4, 0xfa, 0x22, 0x41, 0x1e, 0xd4, 0x33, 0xbc, 0xc9, 0x75, 0x26, 0x3f,
  0xee, 0xb3, 0xbe, 0xbe, 0xa3, 0x0c, 0xc3, 0xbf, 0x2a, 0x51, 0xbf, 0xbf,
  0x63, 0x37, 0xb6, 0xbf, 0x51, 0x1c, 0x4e, 0xba, 0x75, 0x3b, 0x96, 0xbc,
  0x6a, 0xeb, 0x3e, 0x3e, 0x16, 0x66, 0x5c, 0xc0, 0x34, 0xc4, 0xbc, 0xbb,
  0xc4, 0xf7, 0x33, 0xbf, 0x87, 0xf2, 0x78, 0x40, 0xcd, 0x04, 0x27, 0x41,
  0x8d, 0x8f, 0x5e, 0x3e, 0x67, 0xbe, 0x1f, 0xc1, 0x79, 0x9e, 0x80, 0xbf,
  0xef, 0x3e, 0x9c, 0xbd, 0x64, 0x36, 0x46, 0xba, 0xb1, 0x4d, 0xbc, 0xbf,
  0xa2, 0xdf, 0x0c, 0xbe, 0x8c, 0xda, 0x98, 0xbd, 0x6e, 0x4e, 0x94, 0xbe,
  0x4a, 0xf1, 0x83, 0x3e, 0x80, 0x59, 0x0b, 0xbe, 0xc8, 0x50, 0x4b, 0x3e,
  0x70, 0x55, 0xa9, 0xbe, 0x71, 0x0e, 0x92, 0xbe, 0x54, 0x9c, 0x90, 0x40,
  0x28, 0x72, 0xf6, 0x3e, 0xac, 0xd2, 0x1b, 0xbb, 0xd4, 0x80, 0x91, 0xbf,
  0xe6, 0x10, 0x51, 0xc0, 0xfd, 0x95, 0x87, 0x3e, 0x30, 0xa1, 0x54, 0x3d,
  0x74, 0xa7, 0xed, 0xc0, 0x28, 0xfd, 0x1e, 0xc0, 0x32, 0x31, 0x52, 0xbd,
  0x2f, 0xfb, 0x1d, 0xbb, 0x7d, 0xe7, 0x22, 0xc0, 0x5f, 0x4b, 0xdb, 0x3f,
  0xce, 0xe6, 0x7f, 0xbf, 0x85, 0xef, 0x79, 0xbd, 0x4b, 0x45, 0x03, 0x41,
  0xb0, 0x0a, 0x8b, 0x40, 0x2b, 0x48, 0xeb, 0xbf, 0xa5, 0xcb, 0x26, 0xbc,
  0xfa, 0x05, 0x44, 0x41, 0xb0, 0x16, 0x3e, 0xbd, 0x9b, 0xfc, 0x66, 0x3e,
  0xc7, 0xc6, 0xc4, 0xbe, 0xe0, 0xd4, 0x19, 0xbf, 0x13, 0x95, 0x58, 0x40,
  0x5c, 0x34, 0x5d, 0xbe, 0x60, 0xfe, 0x9b, 0x3e, 0x55, 0xab, 0xd7, 0x40,
  0xa5, 0xc0, 0xc0, 0x3c, 0xa8, 0x03, 0x6c, 0x3d, 0x33, 0xae, 0x99, 0xbe,
  0x1c, 0xe6, 0xad, 0xbe, 0x62, 0xff, 0xff, 0xff, 0x04, 0x00, 0x00, 0x00,
  0x80, 0x00, 0x00, 0x00, 0x07, 0x34, 0xae, 0xc0, 0xae, 0xab, 0x13, 0x40,
  0xf9, 0x50, 0x14, 0x3f, 0xc1, 0xc8, 0x04, 0x40, 0x00, 0x00, 0x00, 0x00,
  0x44, 0x29, 0x1a, 0x3f, 0x9f, 0xa2, 0x94, 0xbf, 0x49, 0xf6, 0x96, 0xc0,
  0x00, 0x00, 0x00, 0x00, 0x7a, 0xea, 0xd5, 0x40, 0x5f, 0x93, 0x8d, 0xc0,
  0x44, 0xf8, 0x06, 0xc0, 0x00, 0x00, 0x00, 0x00, 0x04, 0xbf, 0x68, 0xc0,
  0xe4, 0xf1, 0x89, 0xc0, 0x6a, 0x67, 0x16, 0x40, 0xbc, 0x8e, 0x44, 0x40,
  0xce, 0x5d, 0xe5, 0x3c, 0x43, 0x6c, 0xba, 0xbf, 0x73, 0x4b, 0x41, 0x3f,
  0xfc, 0x4e, 0x88, 0x40, 0xc0, 0x48, 0x38, 0xbf, 0x00, 0x00, 0x00, 0x00,
  0x00, 0x00, 0x00, 0x00, 0xa0, 0x67, 0x9b, 0x40, 0xbc, 0x9a, 0x9a, 0xc0,
  0x22, 0xf0, 0x26, 0xc0, 0x61, 0xa2, 0x2b, 0x40, 0xe3, 0x23, 0x85, 0x40,
  0xdd, 0x74, 0xd5, 0x3d, 0x94, 0xc2, 0x91, 0x40, 0x68, 0x64, 0xb5, 0xbd,
  0xee, 0xff, 0xff, 0xff, 0x04, 0x00, 0x00, 0x00, 0x04, 0x00, 0x00, 0x00,
  0xea, 0x40, 0x97, 0x40, 0x00, 0x00, 0x06, 0x00, 0x08, 0x00, 0x04, 0x00,
  0x06, 0x00, 0x00, 0x00, 0x04, 0x00, 0x00, 0x00, 0x40, 0x00, 0x00, 0x00,
  0xc3, 0x00, 0xb1, 0x3d, 0x04, 0xd8, 0x8f, 0x40, 0x00, 0x00, 0x00, 0x00,
  0x26, 0xa1, 0x94, 0xbc, 0xd1, 0x96, 0xae, 0xbd, 0x92, 0x51, 0x31, 0xbd,
  0xe8, 0x6d, 0x95, 0x40, 0xa8, 0x2a, 0xe8, 0xbf, 0xbb, 0xd9, 0x2c, 0x40,
  0x00, 0x00, 0x00, 0x00, 0xee, 0x6a, 0x8c, 0x3e, 0x6b, 0x3d, 0xe8, 0xbf,
  0x0a, 0x87, 0x8f, 0xc0, 0x95, 0x7e, 0x88, 0x40, 0x2c, 0xc9, 0x9d, 0x3e,
  0xe5, 0x89, 0x8d, 0xbc, 0x20, 0xfb, 0xff, 0xff, 0x24, 0xfb, 0xff, 0xff,
  0x0f, 0x00, 0x00, 0x00, 0x4d, 0x4c, 0x49, 0x52, 0x20, 0x43, 0x6f, 0x6e,
  0x76, 0x65, 0x72, 0x74, 0x65, 0x64, 0x2e, 0x00, 0x01, 0x00, 0x00, 0x00,
  0x14, 0x00, 0x00, 0x00, 0x00, 0x00, 0x0e, 0x00, 0x18, 0x00, 0x14, 0x00,
  0x10, 0x00, 0x0c, 0x00, 0x08, 0x00, 0x04, 0x00, 0x0e, 0x00, 0x00, 0x00,
  0x14, 0x00, 0x00, 0x00, 0x1c, 0x00, 0x00, 0x00, 0xd8, 0x00, 0x00, 0x00,
  0xdc, 0x00, 0x00, 0x00, 0xe0, 0x00, 0x00, 0x00, 0x04, 0x00, 0x00, 0x00,
  0x6d, 0x61, 0x69, 0x6e, 0x00, 0x00, 0x00, 0x00, 0x03, 0x00, 0x00, 0x00,
  0x80, 0x00, 0x00, 0x00, 0x38, 0x00, 0x00, 0x00, 0x04, 0x00, 0x00, 0x00,
  0x9a, 0xff, 0xff, 0xff, 0x10, 0x00, 0x00, 0x00, 0x00, 0x00, 0x00, 0x08,
  0x0c, 0x00, 0x00, 0x00, 0x10, 0x00, 0x00, 0x00, 0x9c, 0xfb, 0xff, 0xff,
  0x01, 0x00, 0x00, 0x00, 0x09, 0x00, 0x00, 0x00, 0x03, 0x00, 0x00, 0x00,
  0x08, 0x00, 0x00, 0x00, 0x06, 0x00, 0x00, 0x00, 0x02, 0x00, 0x00, 0x00,
  0xca, 0xff, 0xff, 0xff, 0x10, 0x00, 0x00, 0x00, 0x00, 0x00, 0x00, 0x08,
  0x10, 0x00, 0x00, 0x00, 0x14, 0x00, 0x00, 0x00, 0xba, 0xff, 0xff, 0xff,
  0x00, 0x00, 0x00, 0x01, 0x01, 0x00, 0x00, 0x00, 0x08, 0x00, 0x00, 0x00,
  0x03, 0x00, 0x00, 0x00, 0x07, 0x00, 0x00, 0x00, 0x05, 0x00, 0x00, 0x00,
  0x01, 0x00, 0x00, 0x00, 0x00, 0x00, 0x0e, 0x00, 0x16, 0x00, 0x00, 0x00,
  0x10, 0x00, 0x0c, 0x00, 0x0b, 0x00, 0x04, 0x00, 0x0e, 0x00, 0x00, 0x00,
  0x18, 0x00, 0x00, 0x00, 0x00, 0x00, 0x00, 0x08, 0x18, 0x00, 0x00, 0x00,
  0x1c, 0x00, 0x00, 0x00, 0x00, 0x00, 0x06, 0x00, 0x08, 0x00, 0x07, 0x00,
  0x06, 0x00, 0x00, 0x00, 0x00, 0x00, 0x00, 0x01, 0x01, 0x00, 0x00, 0x00,
  0x07, 0x00, 0x00, 0x00, 0x03, 0x00, 0x00, 0x00, 0x00, 0x00, 0x00, 0x00,
  0x04, 0x00, 0x00, 0x00, 0x03, 0x00, 0x00, 0x00, 0x01, 0x00, 0x00, 0x00,
  0x09, 0x00, 0x00, 0x00, 0x01, 0x00, 0x00, 0x00, 0x00, 0x00, 0x00, 0x00,
  0x0a, 0x00, 0x00, 0x00, 0x8c, 0x03, 0x00, 0x00, 0x1c, 0x03, 0x00, 0x00,
  0xac, 0x02, 0x00, 0x00, 0x58, 0x02, 0x00, 0x00, 0x10, 0x02, 0x00, 0x00,
  0xc4, 0x01, 0x00, 0x00, 0x78, 0x01, 0x00, 0x00, 0xf0, 0x00, 0x00, 0x00,
  0x60, 0x00, 0x00, 0x00, 0x04, 0x00, 0x00, 0x00, 0xb2, 0xfc, 0xff, 0xff,
  0x00, 0x00, 0x00, 0x01, 0x14, 0x00, 0x00, 0x00, 0x1c, 0x00, 0x00, 0x00,
  0x1c, 0x00, 0x00, 0x00, 0x0a, 0x00, 0x00, 0x00, 0x34, 0x00, 0x00, 0x00,
  0x02, 0x00, 0x00, 0x00, 0xff, 0xff, 0xff, 0xff, 0x01, 0x00, 0x00, 0x00,
  0x9c, 0xfc, 0xff, 0xff, 0x19, 0x00, 0x00, 0x00, 0x53, 0x74, 0x61, 0x74,
  0x65, 0x66, 0x75, 0x6c, 0x50, 0x61, 0x72, 0x74, 0x69, 0x74, 0x69, 0x6f,
  0x6e, 0x65, 0x64, 0x43, 0x61, 0x6c, 0x6c, 0x3a, 0x30, 0x00, 0x00, 0x00,
  0x02, 0x00, 0x00, 0x00, 0x01, 0x00, 0x00, 0x00, 0x01, 0x00, 0x00, 0x00,
  0x0a, 0xfd, 0xff, 0xff, 0x00, 0x00, 0x00, 0x01, 0x14, 0x00, 0x00, 0x00,
  0x1c, 0x00, 0x00, 0x00, 0x1c, 0x00, 0x00, 0x00, 0x09, 0x00, 0x00, 0x00,
  0x68, 0x00, 0x00, 0x00, 0x02, 0x00, 0x00, 0x00, 0xff, 0xff, 0xff, 0xff,
  0x10, 0x00, 0x00, 0x00, 0xf4, 0xfc, 0xff, 0xff, 0x4c, 0x00, 0x00, 0x00,
  0x73, 0x65, 0x71, 0x75, 0x65, 0x6e, 0x74, 0x69, 0x61, 0x6c, 0x2f, 0x64,
  0x65, 0x6e, 0x73, 0x65, 0x5f, 0x31, 0x2f, 0x4d, 0x61, 0x74, 0x4d, 0x75,
  0x6c, 0x3b, 0x73, 0x65, 0x71, 0x75, 0x65, 0x6e, 0x74, 0x69, 0x61, 0x6c,
  0x2f, 0x64, 0x65, 0x6e, 0x73, 0x65, 0x5f, 0x31, 0x2f, 0x52, 0x65, 0x6c,
  0x75, 0x3b, 0x73, 0x65, 0x71, 0x75, 0x65, 0x6e, 0x74, 0x69, 0x61, 0x6c,
  0x2f, 0x64, 0x65, 0x6e, 0x73, 0x65, 0x5f, 0x31, 0x2f, 0x42, 0x69, 0x61,
  0x73, 0x41, 0x64, 0x64, 0x00, 0x00, 0x00, 0x00, 0x02, 0x00, 0x00, 0x00,
  0x01, 0x00, 0x00, 0x00, 0x10, 0x00, 0x00, 0x00, 0x96, 0xfd, 0xff, 0xff,
  0x00, 0x00, 0x00, 0x01, 0x14, 0x00, 0x00, 0x00, 0x1c, 0x00, 0x00, 0x00,
  0x1c, 0x00, 0x00, 0x00, 0x08, 0x00, 0x00, 0x00, 0x60, 0x00, 0x00, 0x00,
  0x02, 0x00, 0x00, 0x00, 0xff, 0xff, 0xff, 0xff, 0x20, 0x00, 0x00, 0x00,
  0x80, 0xfd, 0xff, 0xff, 0x46, 0x00, 0x00, 0x00, 0x73, 0x65, 0x71, 0x75,
  0x65, 0x6e, 0x74, 0x69, 0x61, 0x6c, 0x2f, 0x64, 0x65, 0x6e, 0x73, 0x65,
  0x2f, 0x4d, 0x61, 0x74, 0x4d, 0x75, 0x6c, 0x3b, 0x73, 0x65, 0x71, 0x75,
  0x65, 0x6e, 0x74, 0x69, 0x61, 0x6c, 0x2f, 0x64, 0x65, 0x6e, 0x73, 0x65,
  0x2f, 0x52, 0x65, 0x6c, 0x75, 0x3b, 0x73, 0x65, 0x71, 0x75, 0x65, 0x6e,
  0x74, 0x69, 0x61, 0x6c, 0x2f, 0x64, 0x65, 0x6e, 0x73, 0x65, 0x2f, 0x42,
  0x69, 0x61, 0x73, 0x41, 0x64, 0x64, 0x00, 0x00, 0x02, 0x00, 0x00, 0x00,
  0x01, 0x00, 0x00, 0x00, 0x20, 0x00, 0x00, 0x00, 0x86, 0xfe, 0xff, 0xff,
  0x00, 0x00, 0x00, 0x01, 0x10, 0x00, 0x00, 0x00, 0x10, 0x00, 0x00, 0x00,
  0x07, 0x00, 0x00, 0x00, 0x28, 0x00, 0x00, 0x00, 0xf4, 0xfd, 0xff, 0xff,
  0x19, 0x00, 0x00, 0x00, 0x73, 0x65, 0x71, 0x75, 0x65, 0x6e, 0x74, 0x69,
  0x61, 0x6c, 0x2f, 0x64, 0x65, 0x6e, 0x73, 0x65, 0x5f, 0x32, 0x2f, 0x4d,
  0x61, 0x74, 0x4d, 0x75, 0x6c, 0x00, 0x00, 0x00, 0x02, 0x00, 0x00, 0x00,
  0x01, 0x00, 0x00, 0x00, 0x10, 0x00, 0x00, 0x00, 0xce, 0xfe, 0xff, 0xff,
  0x00, 0x00, 0x00, 0x01, 0x10, 0x00, 0x00, 0x00, 0x10, 0x00, 0x00, 0x00,
  0x06, 0x00, 0x00, 0x00, 0x28, 0x00, 0x00, 0x00, 0x3c, 0xfe, 0xff, 0xff,
  0x19, 0x00, 0x00, 0x00, 0x73, 0x65, 0x71, 0x75, 0x65, 0x6e, 0x74, 0x69,
  0x61, 0x6c, 0x2f, 0x64, 0x65, 0x6e, 0x73, 0x65, 0x5f, 0x31, 0x2f, 0x4d,
  0x61, 0x74, 0x4d, 0x75, 0x6c, 0x00, 0x00, 0x00, 0x02, 0x00, 0x00, 0x00,
  0x10, 0x00, 0x00, 0x00, 0x20, 0x00, 0x00, 0x00, 0x16, 0xff, 0xff, 0xff,
  0x00, 0x00, 0x00, 0x01, 0x10, 0x00, 0x00, 0x00, 0x10, 0x00, 0x00, 0x00,
  0x05, 0x00, 0x00, 0x00, 0x24, 0x00, 0x00, 0x00, 0x84, 0xfe, 0xff, 0xff,
  0x17, 0x00, 0x00, 0x00, 0x73, 0x65, 0x71, 0x75, 0x65, 0x6e, 0x74, 0x69,
  0x61, 0x6c, 0x2f, 0x64, 0x65, 0x6e, 0x73, 0x65, 0x2f, 0x4d, 0x61, 0x74,
  0x4d, 0x75, 0x6c, 0x00, 0x02, 0x00, 0x00, 0x00, 0x20, 0x00, 0x00, 0x00,
  0x04, 0x00, 0x00, 0x00, 0x5a, 0xff, 0xff, 0xff, 0x00, 0x00, 0x00, 0x01,
  0x10, 0x00, 0x00, 0x00, 0x10, 0x00, 0x00, 0x00, 0x04, 0x00, 0x00, 0x00,
  0x34, 0x00, 0x00, 0x00, 0xc8, 0xfe, 0xff, 0xff, 0x27, 0x00, 0x00, 0x00,
  0x73, 0x65, 0x71, 0x75, 0x65, 0x6e, 0x74, 0x69, 0x61, 0x6c, 0x2f, 0x64,
  0x65, 0x6e, 0x73, 0x65, 0x2f, 0x42, 0x69, 0x61, 0x73, 0x41, 0x64, 0x64,
  0x2f, 0x52, 0x65, 0x61, 0x64, 0x56, 0x61, 0x72, 0x69, 0x61, 0x62, 0x6c,
  0x65, 0x4f, 0x70, 0x00, 0x01, 0x00, 0x00, 0x00, 0x20, 0x00, 0x00, 0x00,
  0xaa, 0xff, 0xff, 0xff, 0x00, 0x00, 0x00, 0x01, 0x10, 0x00, 0x00, 0x00,
  0x10, 0x00, 0x00, 0x00, 0x03, 0x00, 0x00, 0x00, 0x38, 0x00, 0x00, 0x00,
  0x18, 0xff, 0xff, 0xff, 0x29, 0x00, 0x00, 0x00, 0x73, 0x65, 0x71, 0x75,
  0x65, 0x6e, 0x74, 0x69, 0x61, 0x6c, 0x2f, 0x64, 0x65, 0x6e, 0x73, 0x65,
  0x5f, 0x32, 0x2f, 0x42, 0x69, 0x61, 0x73, 0x41, 0x64, 0x64, 0x2f, 0x52,
  0x65, 0x61, 0x64, 0x56, 0x61, 0x72, 0x69, 0x61, 0x62, 0x6c, 0x65, 0x4f,
  0x70, 0x00, 0x00, 0x00, 0x01, 0x00, 0x00, 0x00, 0x01, 0x00, 0x00, 0x00,
  0x00, 0x00, 0x16, 0x00, 0x18, 0x00, 0x14, 0x00, 0x00, 0x00, 0x10, 0x00,
  0x0c, 0x00, 0x08, 0x00, 0x00, 0x00, 0x00, 0x00, 0x00, 0x00, 0x07, 0x00,
  0x16, 0x00, 0x00, 0x00, 0x00, 0x00, 0x00, 0x01, 0x10, 0x00, 0x00, 0x00,
  0x10, 0x00, 0x00, 0x00, 0x02, 0x00, 0x00, 0x00, 0x38, 0x00, 0x00, 0x00,
  0x84, 0xff, 0xff, 0xff, 0x29, 0x00, 0x00, 0x00, 0x73, 0x65, 0x71, 0x75,
  0x65, 0x6e, 0x74, 0x69, 0x61, 0x6c, 0x2f, 0x64, 0x65, 0x6e, 0x73, 0x65,
  0x5f, 0x31, 0x2f, 0x42, 0x69, 0x61, 0x73, 0x41, 0x64, 0x64, 0x2f, 0x52,
  0x65, 0x61, 0x64, 0x56, 0x61, 0x72, 0x69, 0x61, 0x62, 0x6c, 0x65, 0x4f,
  0x70, 0x00, 0x00, 0x00, 0x01, 0x00, 0x00, 0x00, 0x10, 0x00, 0x00, 0x00,
  0x00, 0x00, 0x16, 0x00, 0x1c, 0x00, 0x18, 0x00, 0x00, 0x00, 0x14, 0x00,
  0x10, 0x00, 0x0c, 0x00, 0x00, 0x00, 0x00, 0x00, 0x08, 0x00, 0x07, 0x00,
  0x16, 0x00, 0x00, 0x00, 0x00, 0x00, 0x00, 0x01, 0x14, 0x00, 0x00, 0x00,
  0x20, 0x00, 0x00, 0x00, 0x20, 0x00, 0x00, 0x00, 0x01, 0x00, 0x00, 0x00,
  0x3c, 0x00, 0x00, 0x00, 0x02, 0x00, 0x00, 0x00, 0xff, 0xff, 0xff, 0xff,
  0x04, 0x00, 0x00, 0x00, 0x04, 0x00, 0x04, 0x00, 0x04, 0x00, 0x00, 0x00,
  0x1d, 0x00, 0x00, 0x00, 0x73, 0x65, 0x72, 0x76, 0x69, 0x6e, 0x67, 0x5f,
  0x64, 0x65, 0x66, 0x61, 0x75, 0x6c, 0x74, 0x5f, 0x64, 0x65, 0x6e, 0x73,
  0x65, 0x5f, 0x69, 0x6e, 0x70, 0x75, 0x74, 0x3a, 0x30, 0x00, 0x00, 0x00,
  0x02, 0x00, 0x00, 0x00, 0x01, 0x00, 0x00, 0x00, 0x04, 0x00, 0x00, 0x00,
  0x01, 0x00, 0x00, 0x00, 0x10, 0x00, 0x00, 0x00, 0x0c, 0x00, 0x0c, 0x00,
  0x0b, 0x00, 0x00, 0x00, 0x00, 0x00, 0x04, 0x00, 0x0c, 0x00, 0x00, 0x00,
  0x09, 0x00, 0x00, 0x00, 0x00, 0x00, 0x00, 0x09
};
const int model_data_len = 4700;







